00002137
02000437
01000b93
00900c13
40000c93
00000493
000029b7
00003ab7
d00a8a93
00005b37
100b0b13
00007837
50080813
000018b7
00000293
00000913
00002a37
400a0a13
00003d37
b00d0d13
00003db7
c00d8d93
00000313
00642023
00400313
00642823
00400313
00642a23
01b00313
00642c23
03442023
03342223
03542423
08000313
02642823
00000313
02642e23
01100313
00642023
00442303
00237313
fe030ce3
00000313
00642023
000a8393
00000f93
00090613
03160633
01060633
00028693
00d60633
00000f13
00060513
000d0713
000d8793
0003a303
00072e03
01c30333
01f35e93
000e8463
00000313
0007ae03
03c30333
00800e37
01c30333
01835313
08032e93
000e8463
0080006f
07f00313
006b2023
00650023
00438393
004b0b13
01950533
00470713
00478793
001f0f13
00400e13
fbcf10e3
00160613
001f8f93
00400e13
f9cf90e3
00190913
06ca0a13
040a8a93
010d0d13
010d8d93
ef791ae3
00148493
06c98993
00100e13
01c49663
00400513
00050293
00200e13
01c49663
00800513
00050293
00300e13
01c49663
02000513
00050293
00400e13
01c49663
02400513
00050293
00500e13
01c49663
02800513
00050293
00600e13
01c49663
04000513
00050293
00700e13
01c49663
04400513
00050293
00800e13
01c49663
04800513
00050293
e58496e3
00100b93
00200c13
02000c93
00000493
000189b7
00019ab7
900a8a93
00019b37
a00b0b13
00007837
50080813
000018b7
90088893
02000293
00007837
50080813
00098393
00000e13
00028e93
00ae1f13
00000f93
00000513
000e8593
00000613
00000313
0055d693
01f5f713
01f686b3
fff68693
00a70733
fff70713
0206c263
0396d063
00074e63
01975c63
00569793
00e787b3
01e787b3
010787b3
00078303
00638023
00138393
00158593
00160613
00400793
faf616e3
00150513
00300793
f8f51ce3
001f8f93
00300793
f8ff94e3
001e0e13
04000793
f6fe18e3
0001a837
b0080813
00000913
00017a37
500a0a13
00018d37
e00d0d13
00018db7
f00d8d93
00000313
00642023
00400313
00642823
00400313
00642a23
24000313
00642c23
03442023
03342223
03542423
08000313
02642823
00000313
02642e23
01100313
00642023
00442303
00237313
fe030ce3
00000313
00642023
000a8393
00000f93
00c91613
01060633
00560633
40000593
00000f13
00060513
000d0713
000d8793
0003a303
00072e03
01c30333
01f35e93
000e8463
00000313
0007ae03
03c30333
00800e37
01c30333
01835313
08032e93
000e8463
0080006f
07f00313
006b2023
00650023
00438393
004b0b13
00b50533
00470713
00478793
001f0f13
00400e13
fbcf10e3
00160613
001f8f93
00400e13
f9cf90e3
00190913
011a0a33
010d0d13
010d8d93
ef791ee3
00148493
00100e13
01c49663
02400513
00050293
e1849ee3
0180006f
000192b7
b0028293
0ff00313
0062a023
0140006f
000192b7
b0028293
0aa00313
0062a023
0000006f
