00002137
02000437
01000b93
01800c13
40000c93
00000493
000029b7
00003ab7
400a8a93
00009b37
400b0b13
0000f837
40080813
000018b7
00000293
00000913
00003a37
b00a0a13
00003d37
200d0d13
00003db7
300d8d93
00000313
00642023
00400313
00642823
00400313
00642a23
01b00313
00642c23
03442023
03342223
03542423
08000313
02642823
00000313
02642e23
01100313
00642023
00442303
00237313
fe030ce3
00000313
00642023
000a8393
00000f93
00090613
03160633
01060633
00028693
00d60633
00000f13
00060513
000d0713
000d8793
0003a303
00072e03
01c30333
01f35e93
000e8463
00000313
0007ae03
03c30333
00800e37
01c30333
01835313
08032e93
000e8463
0080006f
07f00313
006b2023
00650023
00438393
004b0b13
01950533
00470713
00478793
001f0f13
00400e13
fbcf10e3
00160613
001f8f93
00400e13
f9cf90e3
00190913
06ca0a13
040a8a93
010d0d13
010d8d93
ef791ae3
00148493
06c98993
00100e13
01c49663
00400513
00050293
00200e13
01c49663
00800513
00050293
00300e13
01c49663
00c00513
00050293
00400e13
01c49663
01000513
00050293
00500e13
01c49663
01400513
00050293
00600e13
01c49663
01800513
00050293
00700e13
01c49663
01c00513
00050293
00800e13
01c49663
02000513
00050293
00900e13
01c49663
02400513
00050293
00a00e13
01c49663
02800513
00050293
00b00e13
01c49663
02c00513
00050293
00c00e13
01c49663
03000513
00050293
00d00e13
01c49663
03400513
00050293
00e00e13
01c49663
03800513
00050293
00f00e13
01c49663
03c00513
00050293
01000e13
01c49663
04000513
00050293
01100e13
01c49663
04400513
00050293
01200e13
01c49663
04800513
00050293
01300e13
01c49663
04c00513
00050293
01400e13
01c49663
05000513
00050293
01500e13
01c49663
05400513
00050293
01600e13
01c49663
05800513
00050293
01700e13
01c49663
05c00513
00050293
d5849ee3
00100b93
01000c13
02000c93
00000493
000209b7
f0098993
00021ab7
800a8a93
00021b37
900b0b13
0000f837
40080813
000018b7
90088893
00000293
00098393
00000e13
00048e93
002e9e93
00ae1f13
00000f93
00000513
000e8593
00000613
00000313
0055d693
01f5f713
01f686b3
fff68693
00a70733
fff70713
0206c263
0396d063
00074e63
01975c63
00569793
00e787b3
01e787b3
010787b3
00078303
00638023
00138393
00158593
00160613
00400793
faf616e3
00150513
00300793
f8f51ce3
001f8f93
00300793
f8ff94e3
001e0e13
04000793
f6fe16e3
00021837
d0080813
00000913
0001fa37
400a0a13
00020d37
d00d0d13
00020db7
e00d8d93
00000313
00642023
00400313
00642823
00400313
00642a23
24000313
00642c23
03442023
03342223
03542423
08000313
02642823
00000313
02642e23
01100313
00642023
00442303
00237313
fe030ce3
00000313
00642023
000a8393
00000f93
00c91613
01060633
00560633
40000593
00000f13
00060513
000d0713
000d8793
0003a303
00072e03
01c30333
01f35e93
000e8463
00000313
0007ae03
03c30333
00800e37
01c30333
01835313
08032e93
000e8463
0080006f
07f00313
006b2023
00650023
00438393
004b0b13
00b50533
00470713
00478793
001f0f13
00400e13
fbcf10e3
00160613
001f8f93
00400e13
f9cf90e3
00190913
011a0a33
010d0d13
010d8d93
ef791ee3
00148493
00428293
e38496e3
00031b37
d00b0b13
00400b93
00100c13
00000493
00021837
d0080813
00a49293
005809b3
00000913
00691293
005983b3
02038e13
00000e93
001e9f13
01e38533
01ee05b3
00050303
00150603
00c35463
00060313
00058603
00c35463
00060313
00158603
00c35463
00060313
006b0023
001b0b13
001e8e93
01000693
fade9ee3
00190913
fb8912e3
00148493
f97498e3
0180006f
000312b7
e0028293
0ff00313
0062a023
0140006f
000312b7
e0028293
0aa00313
0062a023
0000006f
